3DA1
BDB2
3E8E
3F18
3F5B
3FA1
BE52
BD71
3C40
BF10
BEFE
BE99
3F53
3F22
3F2D
BD9C
3CF6
3FBB
BF9D
BE91
3F90
3F58
BF4D
BD59
3CBD
3F7F
BFB2
3F3E
3F1C
BFE2
BF3A
3DC8
3D33
BDC1
3E98
BFD3
BF21
3F28
BF48
3DAE
3DC3
3E33
C00E
BF08
BDC5
3F43
3E75
BDD3
3BFF
3EA2
BF92
BFCA
3F6A
3FA6
3F93
3E8E
3C5E
3D1C
3E82
BF77
3E5B
BDD2
3F01
3BBB
BC84
3D9E
3E07
BEEB
3E10
BED4
BDAC
BDE6
3C4A
BD36
3EED
3E06
BF26
BF02
BE79
BDCE
3DF9
3F29
3EB3
3D58
3DA0
BF10
BDED
BDA9
BDC8
3E79
3E41
BD96
3E9C
BED4
3DB2
3DE8
BBB8
3C97
BF43
BEE8
BE3D
3EFF
BD66
3D82
3DE2
3E47
BEBB
BF45
BF2A
3C90
BD9D
3C79
3DCB
3E8A
3FAD
3F48
BE02
3D99
BE70
BDDD
BD08
BC92
BDB5
3DA0
3F27
3ECD
3E95
3ED2
3DEB
3DDF
BEB9
3E11
3E9B
3E4B
3F50
BE43
BD66
BEA3
3F8E
BE2E
BF26
BDDF
3F73
BE91
3D4D
BF02
BDB5
BF75
3E41
3FB0
BE4D
BD44
3C80
BF23
3F8E
3F91
3FB8
3EF4
BD0C
3DB5
BDEA
3DAC
BEA5
3F5F
BE81
BE1F
3F6D
BD80
BD82
BE6D
BEE9
C010
BF18
3FDA
3EDA
BDAE
3CFA
BED8
BE15
BFFA
BF26
3DA3
3F25
BD55
3D36
3DBC
BE51
3F23
3FDA
BEFC
BEF5
BF96
BC91
BDB7
BDD0
3EA6
400C
3F6F
3F81
3F66
BDE3
BD14
3F08
3C97
3F41
BEB7
3F31
3F06
BB9F
BF1B
C006
BFED
3CAF
BF0A
3EA6
BD77
BDC6
BF66
BFFB
BF1B
3F56
BCCD
3EC1
BDEE
3D4B
BDE4
3F7A
3FB7
4002
3E87
BF14
3CFB
BD27
BDAA
3EDF
3D8C
3F30
3FC1
BB37
BD88
3DBA
3ED5
3F0D
BE8B
BFBF
3EDE
3ED8
BD0E
3D35
BD54
BEEA
BE97
BE9E
BF04
BE8C
BDC5
BD5A
3C8B
3F86
3D1F
3EAB
3FB2
3EC0
BF15
BD0A
3F2D
BF96
3F43
BF35
BC14
BF8C
BF11
BD4C
BE25
402A
3E90
C016
BD6E
BFA2
3D1C
BD5C
3ECF
3F2E
3F30
BD1D
BF86
BF4D
3DE1
BD0A
BEB5
3E1F
BE9C
BF81
BF5E
BEFE
BB94
BDBE
BFB1
3FF6
BF33
BEFA
3F72
3F91
BBE5
BD5B
BF47
BD7C
BEAC
3EB9
3F82
BF13
BE3D
3C11
BD28
3F1C
3E87
3F4B
BF86
BFBB
BF9D
3DA0
3AE7
BC6D
BD80
BD86
BD78
3DBE
3D2E
BDD0
3D8E
BDA4
BDD9
BA3D
3DDF
BD79
BD8D
BDD7
BDC7
3DDD
BDED
BD46
3B0A
BD5A
BCE3
BD5F
BDE5
BDC2
BD8C
BD20
BDAA
3D98
BD7F
BD9F
BD33
3DCC
BD1F
BCA1
BCF0
3D79
BCB1
3D89
BDDC
BCEE
BDB9
BD33
3D42
3DA3
3DFD
BDD4
3BB9
3C99
BDDC
BD55
3DAC
3DC3
3DB8
3C34
BDAD
3C29
BDCA
BD4B
3BA3
BCD9
3D4B
3B00
BDFA
BED4
BF63
BF28
BEA4
BFB2
3D43
3D8B
BF88
BFBD
BEDE
BF9A
3F11
BF33
3DDF
3D7E
3E9D
3EA3
3F1E
3F8E
4018
3D88
BD0A
BDDC
3F5D
3E3D
3FDC
3EE0
3F10
BDC6
BDDC
3D8F
3F0C
BE25
3F7A
BF24
3E62
BE9C
BDD2
BDDD
3EBB
3F81
3F9D
3FE0
3EB5
BFE3
3D62
3DA2
BF04
3EBE
BEFE
BF36
3EDA
BFA1
3F0F
3DE8
BD9C
BF6A
3CED
3F73
BF1A
3DDE
3F52
BC34
3DB5
3D87
BED6
3F27
BEA1
BFD2
BDAE
3DAE
3E6A
3FAA
BE55
3C0B
3F0E
3F39
3DD8
3DBD
3FA5
BE8A
BFB3
3E53
3F2B
3F82
BDFC
3DC0
BFC3
BFD0
BF5A
BFA1
BE79
BF01
BD03
39FC
BEB0
BFE3
3F6F
3E33
BF9C
BF2A
BBAD
3D33
3D99
3FCC
BEC5
BF2A
3F81
BEDE
BD72
3DDC
3F97
3F90
BEB2
3EDC
3FC2
3F05
BEEB
3DFD
BD67
BD50
3F28
3FCE
3F81
3EED
3E93
3D84
3DFE
BF55
BD6B
3E0A
BEC9
BEA3
BD2F
BB34
BEE8
BF6C
BE5E
BF63
BEDB
BF0D
3D67
BCA9
BF92
BCCB
BEAD
BFAB
C03D
3EAA
3C43
BD9A
BD23
3FA9
3FD4
3F06
3DB4
BF8D
BDD0
BB3B
BF51
3CC0
3F35
3F4D
BEFC
BF3B
3D7A
3D47
BF18
3FF6
3FBF
3EF5
3E9C
3ACB
3DD4
BD7D
BE43
3ED4
3F16
BE8F
3F33
BD20
3E0E
3CEF
3B74
BF37
BEBA
3F9A
3F8B
3EBF
3E47
BD93
BD25
BFC8
BF41
3F26
BF4D
BF02
3EFE
BDF7
BE5B
BF78
3F10
3E82
3E56
BD88
3E42
3DEB
BF39
3ECA
BF03
C00F
BFBA
3E10
BCDF
BD59
3F18
3F25
BFD4
BF00
BDD7
4027
BDB1
3D5F
3F68
4000
BEA5
BF34
3F0E
3FB1
3CD4
3DC7
3FAB
3FF8
3E38
3F33
3F68
3FC3
BDF3
3D0A
BE0A
3F1B
3E8D
BE30
3F98
3D12
BED5
BBD3
3D24
BFA6
BE62
3F92
BEDD
BF04
BEA1
BF7C
3E74
BE75
C02A
3FCF
BD50
3DAF
3FAD
BFEA
401D
4034
BF09
BF7B
BE17
BF02
BE1F
4013
BF60
4015
C016
3F0B
3F23
C045
3F23
BE68
3E4F
BF49
4049
3EFB
BFD9
3FD2
3FA8
3F22
3FF4
BF18
BD2A
BF42
3E68
BF0B
BFC2
BF2B
3F07
3DD5
BF9C
C02F
BDE3
401A
BFCA
3E46
4061
3F94
3E2A
3F47
BEE4
4059
3E2A
C01E
C00C
3EF3
BF12
BDD8
BE73
BEFF
BF08
3E72
BE96
BFD3
3F08
4017
3FBB
BFE9
3D84
BDE6
405B
BFA1
BDA5
BD98
BFD5
C00A
3F6D
BFF5
BFE9
3ED8
3EB2
3F0C
3E6D
3FA2
3FA2
3F99
BFAF
3D81
BF10
4037
BF60
BF0B
BBAF
3D53
3C8B
BFE8
BDDB