0D
1B
95
19
9D
96
00
0D
17
1A
80
9C
96
1F
98
18
1C
15
A0
19
9E
9E
1E
1F
19
9D
91
8E
89
93
80
00
9C
9F
18
99
00
17
8A
19
11
0C
1C
9B
8A
00
80
1C
1B
20
9A
92
92
9F
9B
96
97
92
91
00
9F
9E
1A
0F
1F
1F
2B
95
98
21
B9
00
91
AA
A9
2F
B6
29
AC
13
92
B1
39
B3
BB
BC
1C
9C
9F
B5
AD
32
B6
B1
BD
18
80
B1
AE
41
37
B5
A3
8D
0F
BA
44
3D
34
0B
2A
99
1B
AE
38
35
B2
27
B8
A8
1B
1E
AE
3A
36
B2
A5
B4
9B
9E
3D
1C
B1
2C
2D
AD
99
34
24
34
AA
B0
B4
A2
00
31
41
20
BE
3F
A6
1E
00
2F
3D
2E
BE
2C
37
1A
8D
35
BE
B6
BE
B6
31
94
11
24
33
92
B4
B2
29
9C
9A
A2
36
AF
3B
A7
8D
80
1A
10
33
3A
30
BC
31
80
0D
10
9F
0E
92
9F
8F
89
9F
1B
80
11
A0
95
88
97
96
1A
1B
00
80
8A
12
1B
80
8F
A0
98
80
1E
16
00
1B
13
0B
9E
9B
A0
A0
9C
9A
0A
10
A0
9A
09
1B
00
1C
98
9C
9D
00
9D
9D
12
13
0C
19
8E
19
0D
00
8B
8D
1D
AE
36
33
32
3B
29
19
34
41
2A
25
2E
37
8E
12
A7
B1
BB
AA
40
39
00
0A
C1
B3
33
A1
94
A2
91
9A
AC
B8
3E
25
10
2A
10
1D
B2
B1
BE
25
35
3D
00
9B
B4
36
BB
BC
A2
AD
A8
9D
0B
34
3B
AB
BB
22
B2
9C
1F
9C
00
92
9B
9C
9F
9B
91
9B
00
15
99
9E
00
90
1B
A3
00
98
92
09
1E
9D
80
12
9D
13
93
19
99
09
17
A2
9E
98
14
00
9C
90
18
16
9F
88
15
18
15
1D
0C
16
96
A3
00
1F
9A
80
80
97
1B
16
94
13
8B
00
16
3A
3A
37
38
34
18
16
33
3E
27
39
B2
35
28
80
31
BD
BC
B0
A6
3B
98
80
B3
C5
B9
2E
29
2F
80
1B
98
AD
AD
33
A3
B8
9A
8A
2A
10
41
2B
B4
BB
80
9B
35
38
2F
35
B2
A0
B0
0A
97
2E
30
BB
39
34
36
1D
1C
37
3D
32
3C
3C
B2
93
19
34
2C
0C
B4
14
B4
11
99
21
2F
B3
BB
C1
91
1A
AC
9C
39
3F
BF
B8
9F
0F
2E
A0
B3
B2
A6
A7
1C
9B
AF
C1
B7
2E
34
32
9E
18
00
B5
BA
30
21
B1
A4
09
1B
3C
30
A6
B5
BF
BA
9D
9E
32
AC
80
AC
3D
2C
9E
33
27
A2
B1
B9
B6
2F
16
B2
AC
AA
B8
BA
B2
0A
1F
31
32
12
1D
32
40
80
90
3B
3B
39
3B
3F
39
99
9B
3C
39
42
41
B1
AA
1C
9B
21
B1
3E
A1
BF
BC
00
80
1F
27
A6
C0
BC
B9
30
9C
9F
34
36
B1
36
B5
20
17
A1
24
A7
9F
A9
1F
29
97
A6
B1
35
3A
41
31
8E
00
3A
AC
41
38
2D
30
00
A0
9C
B2
2D
16
2A
B9
10
9B
AC
B5
35
3B
B9
C2
20
95
A8
21
B7
22
B5
00
37
1D
1B
19
24
21
2A
29
39
A4
26
43
95
24
A2
89
B8
B4
C2
25
37
B4
21
C1
25
AD
AE
34
43
A1
31
35
A5
B9
24
44
1B
C5
29
96
B6
C4
16
3C
14
3C
3F
BC
A5
1B
B5
25
A4
A2
9A
C1
C2
43
38
A4
AF
3A
26
B4
17
1E
44
3B
BA
A9
43
B2
27
BB
19
B6
B3
A5
C1
23
C0
A9
A0
39
80
37
BB
42
30
1D
3B
95
28
30
9A
1C
0D
B2
3B
99
C0
2F
20
3F
19
BC
2D
31
3A
